0000000 0599 00c0 053c 0022 06e5 ffcc 05b3 007b
0000010 06c9 0056 0610 0033 0b2f ff29 068e 00bc
0000020 0351 014a 047e ff3a 0219 fe98 0475 ff0d
0000030 0516 001a 043f 0049 054b 0091 09f0 ff63
0000040 0123 0134 0119 0144 00d7 fff3 0115 0075
0000050 00ca 0114 00b2 ff67 0105 00ad 0106 0097
0000060 011b 00a4 0134 00b3 00c9 ff7e 0101 007f
0000070 010f 0084 00e7 0087 0106 ffee 0122 00c9
0000080 00b9 ff79 0166 00fd 00fb 0006 00fd 0138
0000090 0124 0178 00d6 0134 00da 00ce 015b 0138
00000a0 012f 00a0 00e0 00c4 0145 00fc 00e6 0050
00000b0 00fa 0019 0108 0120 00d8 00fa 0128 0122
00000c0 0165 005b 0163 012a 0155 ff73 0173 01dc
00000d0 0183 01cd 0172 ff0a 017b 0125 017d 01b0
00000e0 0136 01f4 018c 01c8 0162 0054 018c 0173
00000f0 017e 004e 013a 00a8 018c 010f 0100 ffd1
0000100 010a feeb 0191 013a 0199 0166 017e 00be
0000110 0178 01cd 018c 00dd 01a8 019b 0167 007f
0000120 0102 ff8b 016e 0072 015e 00b1 01ad 011a
0000130 0129 003e 0173 007c 0167 0092 0171 0113
0000140 0184 0112 017a ffe7 0183 017a 0180 0045
0000150 0163 0055 017d 0206 014d 0040 0133 00dd
0000160 017a 01c3 0169 0173 0173 0018 0181 0008
0000170 0174 00b0 0186 0103 0142 ffa7 0197 00b2
0000180 0185 013c 0155 00f4 01b0 01d0 01a0 01d7
0000190 017c 0192 0167 ff16 0190 0237 015a 00a0
00001a0 015d 00e1 0150 fff3 0156 0166 0174 00f0
00001b0 0146 0021 0168 0116 0124 ff90 0168 0128
00001c0 0121 ffcf 00f1 0007 013a ffff 0121 0144
00001d0 014b 005e 0137 0136 0123 011e 0148 00d1
00001e0 014a 0092 013e ffb1 0133 006b 0112 004b
00001f0 0144 01bd 0138 ffc3 0135 0017 0142 00b5
0000200 0115 00f7 0158 fff0 0115 fed4 0147 fefa
0000210 0157 ffde 0118 0136 013b 014a 010e fef0
0000220 00f2 001a 0156 00f7 012a 0045 011b ffd3
0000230 0151 012a 0136 fec8 0136 00f8 0138 0007
0000240 0136 00de 0128 00f2 012b 0074 013e 01a6
0000250 011e 0115 015a 00bb 012d ff56 013d ff2d
0000260 011f 001c 0147 00e4 0130 0027 0124 0030
0000270 0139 016d 0164 01e6 011f 0068 0122 ff2b
0000280 014e 0145 0163 0143 0123 008d 0125 0049
0000290 00f3 ffc0 013a ff9f 0100 0041 0123 0153
00002a0 00f5 ffc4 0160 01b0 014a 0072 0147 0161
00002b0 0128 00c1 016a 003a 0117 00d8 013c 0053
00002c0 0123 ff66 0123 0128 011e 005c 0155 007c
00002d0 013e 0176 0109 0020 010b fff8 0176 012c
00002e0 0132 00cb 00ee ff58 014e 0098 0147 012d
00002f0 0147 019a 014f 00ab 0112 005d 0132 011b
0000300 0135 0009 011a 00cb 0156 00b6 0111 008b
0000310 012e 00cc 0133 005d 011d 00c3 014d 01fb
0000320 0114 0086 0133 0018 0119 00a3 0158 0147
0000330 0163 0296 0166 ff0f 014a 0133 0151 019f
0000340 0110 ff27 015e 00c2 010c 019b 012a 007b
0000350 0150 00d6 0128 ff53 013d 00b6 0124 00bf
0000360 0121 0141 013d 01e8 0155 01a1 0126 00b3
0000370 0132 013b 0159 01bc 0123 fff3 0132 0164
0000380 013b 0037 010f ff44 015a 0113 0126 fe48
0000390 0114 ffdb 015e 012d 011d 00f7 0130 00ec
00003a0 0138 0187 0105 0073 0109 003e 016c 0101
00003b0 0129 fff6 0114 0164 00ec ffa5 0123 0077
00003c0 010f 00de 0116 ff47 011e 00c0 0131 0047
00003d0 0127 00fb 011b 005f 0120 001d 010f 006c
00003e0 0124 0257 00f0 00a2 0126 0099 0144 008d
00003f0 00fc 0042 011d ffeb 0123 ff27 0114 0179
0000400 0122 0265 00fd 0021 012b 017e 010d 0096
0000410 0122 0176 011a 0124 00fe fff4 010e ff91
0000420 0121 ffdf 0108 00a1 012b 00f5 0118 00b0
0000430 0112 0198 0127 0059 0111 ff72 013e 01f6
0000440 0117 ffcc 0116 00aa 0126 016a 0118 ffbd
0000450 0113 ff66 011d ff09 010c ffac 00ef 0185
0000460 010b 00a4 0115 00f6 011c 0113 0133 0033
0000470 0109 01e7 011a 022e 011b 00fa 0126 01ad
0000480 010a 0105 010e ff53 010e 0086 011b 00ed
0000490 0135 0127 010e 010a 0133 fec2 0110 00e8
00004a0 00fe ff47 011a 00f8 0116 005c 0120 00cc
00004b0 0128 00e1 0127 ff58 010e 0029 011a 0066
00004c0 011b 0186 0115 0081 0133 016d 0117 00d3
00004d0 0108 013e 011a 007f 0119 fee6 0112 0041
00004e0 0122 005e 0117 ffe4 013f ffff 012a 0014
00004f0 0100 ffed 0102 ff90 0115 00e1 0111 ff44
0000500 0107 00dc 0121 0107 0109 01d1 0118 0057
0000510 0114 00a7 010f 011d 012a 0079 0120 00de
0000520 011b 00c1 012f 00cb 0106 00fa 00ff 002b
0000530 0114 ffc5 0119 004d 0119 ffec 0133 015a
0000540 0127 0195 0137 00a6 010c ff10 010d fe4e
0000550 011b 0142 0108 fe46 010d 01e3 00fc 00b0
0000560 0114 ffec 0113 ff47 0122 017c 010e 0190
0000570 0119 ff84 00ff 011e 0105 0118 0111 0096
0000580 010a 0168 0117 ffdc 00ee 0139 00c5 ff86
0000590 010a 006d 00fd 00cf 0126 0118 0110 ffbb
00005a0 0114 00f1 0127 024f 010d 0076 012f 0173
00005b0 00f9 fffa 0115 0005 010a 00c9 0109 0122
00005c0 0130 015c 0122 0125 0107 00e1 00e2 0018
00005d0 012a 0086 0132 00b2 012d ffec 0100 00a3
00005e0 0135 017f 010a 010e 011a 01a9 011c 008e
00005f0 0136 0023 0119 0109 011d 00af 0108 008c
0000600 0106 ffae 012b 00b9 012c 0023 00b0 fe19
0000610 011c 0098 011a 005b 0123 0143 00f9 ff57
0000620 0125 00e7 0108 ffea 011e 007d 0111 fff6
0000630 0106 ffc0 00b8 fdb8 00f2 ffad 0117 009e
0000640 0125 0024 0114 00e9 011a 01f7 0119 00e9
0000650 0104 ffa3 011f 0166 0122 01ea 0126 00d1
0000660 010c 00bb 0119 00de 0110 00c2 0124 01a7
0000670 010f 0164 011a 004d 0116 01b7 0111 0114
0000680 0110 0144 0104 0117 010c 004e 00fa 0005
0000690 011b 019c 011f 01d0 0124 0129 0125 003b
00006a0 010f ffb7 0118 0067 00ff 0128 0112 006e
00006b0 00d4 ffd7 0119 0103 011b 0159 010f 0163
00006c0 011f ffc9 00ed ff21 0113 ff31 0113 01c8
00006d0 0105 fe13 0124 0025 00fe 0107 00f7 0041
00006e0 0109 007f 00fb 000a 0117 0043 0125 ff87
00006f0 00e5 feed 0115 005b 00f2 01d1 00f6 0019
0000700 0118 ff85 0123 0086 010d 015d 0113 0090
0000710 00f4 0051 011e 00e5 012a 007d 0114 012f
0000720 0115 feb8 0106 0032 012b 006b 010a 00e9
0000730 010f 0039 00f4 ffee 00ff 006a 0115 0139
0000740 0113 010a 0122 00dd 012d ff3c 0129 00d5
0000750 0116 fff2 0109 0143 0113 01a8 0110 ffdf
0000760 0122 0073 0117 01ef 00e6 ffc1 0135 ffd4
0000770 013e 01fd 00e0 00af 0138 0155 0124 018f
0000780 010f 00eb 010b 0065 0127 00b6 00ff 004c
0000790 0114 ff9f 0141 015b 00f1 0089 011c 00a2
00007a0 011c 01a8 00fe 00cf 010a 011d 011a ffc4
00007b0 012a ff63 010a 005a 0113 0132 012a 0079
00007c0 0118 ff48 0118 010c 0118 0133 0128 01e1
00007d0 0125 008e 00f2 00c0 00fa 01a3 0109 ffd4
00007e0 0113 ffec 010c 00a2 0118 0107 011b 0118
00007f0 0112 00c4 0100 0105 00ff 010b 0121 00aa
0000800 010d 0123 0121 01df 0110 0062 00c5 0013
0000810 0109 00af 0113 ff34 0106 01be 010f ff70
0000820 0114 0145 0124 0068 011c 0164 0113 ffdf
0000830 010c 0140 0100 0211 011a 00a3 0112 0175
0000840 00fa 0186 0105 00f8 00f0 01ce 0121 0083
0000850 0111 0087 0113 0029 012a 0026 0110 01de
0000860 010e 0050 010e 0214 00ed ff78 012b 00b7
0000870 0123 011e 0133 00be 00fb 00c5 0112 0087
0000880 0103 0178 010b 0012 011a ff0b 0109 009b
0000890 011b 00fb 0119 0093 0103 ff6e 0119 00eb
00008a0 0120 017f 0112 0005 00d2 fff4 0111 0082
00008b0 0123 0155 011b 007e 010d 0036 0122 01f2
00008c0 0122 0134 0104 0149 0130 ffe4 0122 01ae
00008d0 010f 01c1 011b 0038 00f9 002e 0110 0172
00008e0 0120 00a6 0101 015a 012f 00f0 011c 0166
00008f0 010b 00fb 010f 01f8 0108 00ae 0124 0122
0000900 0125 0131 012e ff99 0116 0086 0111 01b5
0000910 00f8 010a 011d 00f0 0107 ff3e 010a 00de
0000920 0119 0054 0112 00ff 012f 0119 0109 014a
0000930 0118 023b 011c 01d5 00f6 01ef 0111 ffbc
0000940 0126 009d 0135 0135 0110 0058 0109 00d7
0000950 0116 00ad 011a 00a3 0105 0030 010e 007d
0000960 0125 0172 0113 0108 010c 0282 0114 00a7
0000970 0100 0263 011c 015f 011b 017d 0112 0103
0000980 0102 ffd8 0112 01c4 0108 012c 0124 00f6
0000990 0112 012d 0128 ff0f 0133 016a 00f3 fe1f
00009a0 0128 fff6 0111 00e1 010b 0150 0115 0039
00009b0 00f3 005c 010d 0108 010b ffd6 011c 013b
00009c0 0101 0145 0113 0109 00fa 01aa 010e 0096
00009d0 0125 00b0 011c 0190 0123 004d 0107 022c
00009e0 00ff 00ca 0100 01ad 0133 00b7 0111 01bd
00009f0 0134 0154 0114 003a 0106 00c1 0119 0102
0000a00 00dd fff6 012c 0290 00ff 016a 00fe 00c6
0000a10 0106 013f 010c 00e3 0116 0013 0115 0079
0000a20 0123 016a 00fb 0178 0119 00d8 0127 0001
0000a30 010d 0096 011e 00dc 0107 0089 0110 013d
0000a40 0117 0272 010c 01a8 011b 005c 010d 0173
0000a50 0114 00fd 011f 00bb 00ff 013f 012e 00a2
0000a60 010f 01ae 0117 00cc 0106 00f1 0106 0134
0000a70 0120 01d8 0113 0086 0119 ff8e 0103 021e
0000a80 00fd 018e 0112 01a0 011e ff4d 0109 019a
0000a90 0102 00dd 0130 0171 0102 0102 0113 0127
0000aa0 011b 00bd 010a 01d0 0116 ffc8 011c 0149
0000ab0 011a 001e 0127 ffe4 011f 01b8 0114 0178
0000ac0 0105 ffc1 0119 00a7 0124 00df 00fa 0068
0000ad0 0109 00ca 0107 000c 0130 0199 0111 01b3
0000ae0 0118 0109 0117 0096 0113 01ca 0116 0068
0000af0 011c 008d 0114 003d 011c 0270 00f9 0098
0000b00 0117 ff5e 0125 0052 0123 0126 0117 0087
0000b10 0128 015b 0120 00bf 0129 0234 0123 00d2
0000b20 010b 011c 0118 0067 010c 0026 0111 000e
0000b30 0124 024c 010c 0160 0121 00e8 011a 017a
0000b40 0113 0192 0110 017d 011d 01d1 00fe 0123
0000b50 0128 011a 010e 0044 00f0 0126 00fc 026f
0000b60 0121 00e1 0115 013d 0113 0095 0112 00cd
0000b70 0107 0127 0101 01b7 0107 0253 00ff 0255
0000b80 0129 0116 0123 017f 0118 00ed 0107 022d
0000b90 0115 012f 0104 fff2 011c 0086 0128 01d5
0000ba0 010c 01aa 00f3 ffd2 011e fff5 010b 00c2
0000bb0 011c fe99 0131 00f6 0126 01b4 0116 0136
0000bc0 012d 010e 0116 00b6 0129 00fd 00ef ffad
0000bd0 0108 01c3 0129 01f1 0109 0069 0108 008a
0000be0 00fe fff9 0100 011a 00f9 0068 0113 00c6
0000bf0 0108 001a 00f9 ff7b 0104 00b3 0127 0140
0000c00 010c 006d 00fa 0006 011a 002b 011b 010f
0000c10 012c 0060 0119 ff12 0103 ffb3 00e8 ff56
0000c20 010e feec 00df ff6d 0132 013f 0122 00b0
0000c30 0127 0107 0115 0058 011d 008f 00ff 0062
0000c40 0114 0134 0112 ffc7 010d 01bd 0114 012a
0000c50 011d 0022 0111 0098 010c ff86 011b 017a
0000c60 0121 017c 010c 004e 0115 ff57 011d 0132
0000c70 0102 00e0 012c 022d 0122 011d 0118 006e
0000c80 012b 02dd 011e 00cd 0125 0097 010c 0147
0000c90 00f2 00f5 012a 0111 010a ff82 0100 0143
0000ca0 010b 0008 0106 006e 0100 0085 0127 00a8
0000cb0 010b 0071 0119 013c 0114 00f0 0123 fffe
0000cc0 0122 01dc 00de 00e2 010e 00c2 0104 00e3
0000cd0 0102 009c 0117 01f8 0117 01bc 010e 00ef
0000ce0 012a 024b 011a ffea 00fb 0177 0119 010f
0000cf0 011e 00ae 010e ffc3 0128 00c1 010f 00b4
0000d00 00fb 01c4 010c 00a6 011b 005a 0116 00d0
0000d10 0112 0100 0122 0248 011c 012f 011a 005e
0000d20 00fd ff79 0125 00c0 0115 018a 0112 0139
0000d30 0129 01d8 00b7 002e 011f 0163 011b 02de
0000d40 0117 0161 0133 0030 0104 00a3 012a 0080
0000d50 011e 0018 011a 0151 010e 0159 0118 0069
0000d60 0119 00b2 0107 fff2 00fb 0096 010d 00d4
0000d70 011b 0024 0124 ffd6 0120 0026 0117 0142
0000d80 0107 fffa 0110 00f6 0113 0086 010d 0140
0000d90 0114 ffbc 010b 01fb 0115 00e1 011b 0148
0000da0 0111 0059 010c 012b 0136 0017 0110 012e
0000db0 011e 019b 0120 ff8b 010c 01cc 0109 00f2
0000dc0 011b 0161 010b 002c 0129 00b7 00f3 0076
0000dd0 0111 0093 011a 0074 0110 00ea 0117 0075
0000de0 0137 fff4 00f1 011f 0118 0180 0116 ffc8
0000df0 0103 0220 0123 001d 011b 015a 0122 0060
0000e00 00f6 00b9 0102 007f 011b 003a 0117 00f7
0000e10 0116 01ae 0113 fff9 00f0 0046 00fe 00ca
0000e20 011e 00b1 0117 0193 010b 0100 010c 0114
0000e30 010b 0148 010c 0166 0129 00ab 012e 0093
0000e40 00fa ffed 011d 0002 010c 0027 0121 016b
0000e50 00ff 013c 011d 00d0 0111 ffeb 0115 01ab
0000e60 011e 006c 011f 0120 0112 002c 0105 0178
0000e70 0113 00e9 0117 001a 0105 0141 0127 0204
0000e80 0122 00b8 0113 00ad 010f 0164 0124 0078
0000e90 010e fffd 0111 0233 0112 0107 00fd ffda
0000ea0 012a 01b8 010c 00d2 010f 008e 0124 00a1
0000eb0 0118 0042 0126 0223 0117 00f3 0116 00c5
0000ec0 0110 00b4 010f 0148 0123 016f 0116 ffa9
0000ed0 0121 0175 0129 01c5 011c ff90 0118 0050
0000ee0 014b 00a0 0112 0160 0123 0118 0122 00a4
0000ef0 011d ff96 0119 012d 010b 00d4 0110 004e
0000f00 011d 0068 00fb ff55 010a 007e 0104 0145
0000f10 0106 01a2 011e 006f 011a 01aa 011a 00a1
0000f20 0103 00f1 010f 0114 0110 020c 0109 01f8
0000f30 0118 01a1 0119 0222 0102 0127 0103 01c4
0000f40 00f8 007f 012a 0130 010f 01ac 0105 0170
0000f50 0106 011f 011f 021a 011e ffeb 0128 017e
0000f60 011f 00f3 0116 008f 010f 007d 0127 010c
0000f70 0115 0185 011f 0152 00ff 0286 0125 0059
0000f80 0117 0233 0106 ffee 00f8 004d 0127 013f
0000f90 010a ffc0 011a ff36 0131 0093 0116 0138
0000fa0 00e6 01e4 0117 ffc7 0136 00ce 012b ffec
0000fb0 011e 01d8 0116 0078 0117 008f 010c 007b
0000fc0 0136 00fe 012d 00d5 0106 0007 0149 00ce
0000fd0 0166 00ee 013f 0303 0157 013a 014b 014c
0000fe0 0141 00f1 0156 0024 0136 ff49 0130 0043
0000ff0 0142 0174 0110 0162 0143 ffb6 010a 00ef
0001000 011f 0039 0137 01a6 015d 00cb 013e 021a
0001010 013a 0014 0158 00f1 013c 006e 0135 00f2
0001020 0101 0167 014c 00ad 00e7 ffb4 014e 010e
0001030 0134 ffee 0117 0137 015a 01b2 0168 004a
0001040 0164 00f5 0169 00d7 015f 0041 013c 0086
0001050 0145 00e4 0139 0049 013f 00ee 0133 00c6
0001060 0148 0222 0160 ff23 0134 00a2 0122 00c0
0001070 0137 01a9 013c ff7f 012b 0178 013d ff0b
0001080 012a 01a9 0147 010d 0153 0145 013a 0081
0001090 0134 0085 00ee fecb 014c 005f 0157 00af
00010a0 013c 015a 012e 0096 015e 014a 013d 00ba
00010b0 014a 0048 011f fed8 0128 009e 013a 00cc
00010c0 014e 00ef 0138 0096 015e ff59 0141 ff1e
00010d0 011e 002b 0171 00b8 0137 0122 014a 018c
00010e0 0120 0049 012b 0168 015c 00f5 0165 00d7
00010f0 0119 ff39 014c 0024 0121 00c8 0147 0107
0001100 012c 00f0 015e ffbe 0136 0166 0128 00bc
0001110 0147 ff6a 013b 00aa 014f 0115 0147 0137
0001120 014f ffd1 0126 007f 0130 014e 0158 0067
0001130 0133 0006 012c 004f 014c ffbc 015e 005d
0001140 0127 00d1 0100 ff4c 0137 00db 013f fe42
0001150 012c 010b 0142 01e7 0136 fff4 014f 0052
0001160 012b 0119 014c 00b2 013b ffb4 0139 0241
0001170 0162 0063 012c 0246 010d 01da 0131 ff60
0001180 0179 00f8 0151 0038 0147 005c 0124 01a8
0001190 013f 016a 0131 01b7 015a 0028 012f 003a
00011a0 0152 0050 014d 0183 0131 00c0 0160 002f
00011b0 0131 0061 0162 0140 012c ffa4 0157 0112
00011c0 012a 0086 0130 0055 0157 00ee 0142 0150
00011d0 0136 ff4d 0132 ff19 012d ff7c 015c 008d
00011e0 011e fff4 0157 ff94 014b 00a1 0106 01b0
00011f0 0129 0027 0148 011d 012f 00e3 0146 00b8
0001200 0128 fff9 012a 0064 0113 0187 013f 0053
0001210 0166 005c 0135 011e 013d 00b8 0138 0113
0001220 00fb 0078 0121 020f 010a 0076 0110 0110
0001230 0131 009c 013e 00b3 0138 00e6 014a 019b
0001240 0146 0186 0162 01bd 012c 001d 0127 fe76
0001250 016c 0049 015e 0006 0138 01a9 013f 0088
0001260 0139 00a6 013e 0163 005a ffc0 00e8 ffc5
0001270 0140 008e 0144 002c 0152 021b 0167 0084
0001280 011b 0051 0155 00d2 013a 00d1 011d 004a
0001290 013f 0140 0140 012e 0138 00e2 0104 013f
00012a0 0124 0159 015d 01a7 012e 00c4 0145 0119
00012b0 012d 0195 012f 0184 0128 0208 013e 00ed
00012c0 014b fff3 011d 00da 012a 01e9 0158 ffc8
00012d0 0126 0194 0142 0113 012e 00e4 012a 003a
00012e0 0137 00da 0178 fee1 0159 01db 013b 00ba
00012f0 013b 01a3 013c 004d 0124 0040 0134 00d6
0001300 01a0 003c 0120 0054 0132 0098 014d 0054
0001310 0120 0134 0169 00e8 0121 0134 017f 00e9
0001320 011b 0001 013e ffe5 0158 0009 0100 012d
0001330 016c 00d1 012f 015a 0130 01b4 0154 016d
0001340 0143 009a 0143 0034 014c 0152 0151 0000
0001350 0131 0102 0132 01aa 0110 01ad 0146 ffaa
0001360 0170 0173 0147 0088 012d 0120 0132 ffa7
0001370 013d 011e 012a ffaf 015b 0085 0104 0183
0001380 018d 01a5 013a 0033 0155 0113 016c 012f
0001390 015a 00a2 017f 00fa 0150 00c3 012b 01e6
00013a0 0143 ff11 0139 0111 011b 00fe 0167 0195
00013b0 0134 000c 015e 0126 0129 fff3 00f1 0078
00013c0 0147 0164 0150 0095 0127 ff03 011e 0120
00013d0 013a 0080 0140 016a 016b 012f 0162 01c8
00013e0 0115 0144 011e 0120 0143 0051 0122 0203
00013f0 016e 0113 0144 00d8 0135 ffb5 013e 00f2
0001400 0136 005d 0174 ff89 0139 0179 0148 ff9e
0001410 0121 004c 011e 0183 0139 0201 012b 00dd
0001420 0113 01b2 0147 ff95 014c ffa0 0158 016c
0001430 0145 0165 0121 fe5f 0149 0129 010f ffff
0001440 0122 02b0 0137 ffef 014a 012f 0135 015c
0001450 0137 0049 0102 0149 0160 0036 0164 00ed
0001460 0137 0079 014e 0092 0150 006f 0125 ffc2
0001470 0148 01b3 013b fff0 0157 018e 0158 01ab
0001480 0130 028f 0112 0174 0155 ff8f 0166 ffb9
0001490 0132 ffc3 016f 0128 014b 0124 010b 0078
00014a0 0141 0160 0143 007b 0115 011c 0147 ffba
00014b0 0155 0096 0111 00ba 013d 0122 00d3 013e
00014c0 0128 00a3 013d 00a4 012b 0066 014c ff79
00014d0 0132 0158 0132 01ab 0145 00b5 014b 0121
00014e0 011b ffc9 014b ffb5 012f 007c 010b 00a0
00014f0 0132 003f 0116 fee2 0155 00eb 012d 0163
0001500 016a 00ba 0124 0130 0140 0212 0159 00af
0001510 0133 00c9 0133 ff20 0138 00db 0140 00d7
0001520 011a 0169 0143 014f 0157 007b 00f5 0070
0001530 0140 ff3d 013e 0200 0162 fff5 010b 0142
0001540 014a 008f 013b 018b 0110 0143 014a 0037
0001550 015d 0173 0151 0020 011a 00ed 0140 00f5
0001560 014d 00b5 0144 00fa 014e 007e 0133 0244
0001570 0149 004a 015b 009f 0147 01a8 0100 0013
0001580 0143 00e8 012c 00f4 0148 00e4 0148 0056
0001590 0183 0155 012e 0094 0146 ffb7 013d 0125
00015a0 016a 0018 013a 013b 0106 01cd 015f 01d2
00015b0 0120 ff95 012d 0096 0140 017c 0125 012f
00015c0 0131 0095 0134 00f0 015d 0227 0143 00b4
00015d0 0148 ffdb 0130 00a3 0109 000d 016b 0075
00015e0 012f 00d3 0168 000e 0149 00ba 013f 015e
00015f0 00de 018c 0139 ff9d 0149 0086 0156 0072
0001600 015d 00df 011a 01b9 0131 0121 0149 fff5
0001610 0107 0183 0140 0176 0123 026d 0125 ffc9
0001620 0138 0062 0143 ff70 014b 0089 0144 00d7
0001630 013a 0107 014a 00a4 00da 00ec 0156 ffe2
0001640 014b ff2d 00fb 0105 0144 ffc3 0140 0086
0001650 0119 009e 0149 ffad 014a 018d 015c ffea
0001660 0126 0099 0142 00c2 013c 0163 0137 007b
0001670 0159 01a2 0154 01c4 012f ffcb 0130 0136
0001680 0128 00c6 0137 011c 014f 00fe 0149 001f
0001690 0139 0052 0137 0110 0127 fe2e 0151 ffcb
00016a0 011c 003c 014c 010a 0130 0107 0145 0013
00016b0 0130 0016 0140 00d2 0161 0135 013f 009e
00016c0 0123 01ca 014b 0100 014a 0055 0129 0136
00016d0 0129 011b 0149 0248 011a ff93 0149 0158
00016e0 0124 0101 0129 0158 013a 006c 015c 01d0
00016f0 0138 0093 013d 01cc 013f ffe3 0124 ffd2
0001700 0137 0130 0164 00e4 0137 00f1 014e 005e
0001710 0137 0084 011d ffd2 013e 01ba 0119 01c6
0001720 014d 002c 0137 007b 0133 008b 0137 00ad
0001730 0145 0092 0147 ff7a 012a 00e9 015f 0244
0001740 012b 0155 0113 00e1 0151 00d0 0135 012b
0001750 0150 0106 0126 008b 0122 0060 0163 01e0
0001760 0146 006c 0142 0199 013d 0114 0128 0072
0001770 013e 00c8 0142 0064 0150 00f6 0122 006c
0001780 0126 0012 0167 00fa 0161 0114 0155 ff78
0001790 016a 0135 012c 0098 0129 0100 0148 006c
00017a0 0116 ff6e 0138 00d4 013c 0108 0123 ffcc
00017b0 0144 0086 0142 00c9 010f 00ed 0132 00df
00017c0 0133 0080 0154 002c 013a 00ae 0127 0099
00017d0 00fc 00fd 011d 00e4 0169 009d 012a 00c0
00017e0 013e 004d 015f 0026 013a 0137 0144 008b
00017f0 011b 00f7 0140 00d2 0114 011f 0142 ffcf
0001800 0153 ffeb 0127 0191 0177 0020 0145 010f
0001810 013f 0183 0111 0107 0138 0056 012c 007d
0001820 015d 00dc 013b 017d 013c 0117 015b 000c
0001830 0129 ffaf 0145 0057 0120 020c 015a ff71
0001840 013f 01e1 0156 0104 0128 019a 0101 0101
0001850 0134 0106 014c ffd0 0127 01c5 0101 0070
0001860 013a 0153 013d 00c9 0137 0056 0147 0071
0001870 0134 ffca 0156 ff9d 014f 0096 0128 0012
0001880 0141 0177 016d ff84 0104 002c 0150 00bc
0001890 0130 0222 0136 0093 014e 0118 0111 0045
00018a0 0164 011b 016f 0149 0134 0017 0111 00ba
00018b0 0125 0042 0128 0133 010f 00b9 014f 00f7
00018c0 0172 007f 011a 013f 014f 01b5 0159 00f5
00018d0 0122 0120 0147 019f 0150 01d9 0147 00a2
00018e0 0137 0085 012a 0085 013c 017d 012f 00c2
00018f0 0105 ffaa 0129 000e 0133 015b 011b 0050
0001900 015c fff7 0156 0138 013b 0099 016f 0000
0001910 0138 ffd1 0147 0042 013f ff1d 0135 00a9
0001920 015d 011e 0155 00c2 0161 00a6 0130 0026
0001930 0140 01c2 0118 ffbb 0125 008a 0144 01be
0001940 010c 007c 014a 0169 0156 0030 0145 004f
0001950 012d 0010 0141 00ce 0129 01a0 0155 004c
0001960 011c 0010 011b 01d8 0119 010a 014d ffde
0001970 010c 009c 010d 0047 012a ffbb 0130 00fb
0001980 0100 010e 013b 0001 0149 00f6 013c 00a7
0001990 015f 009f 012b 00e5 0157 01a3 012b 0008
00019a0 0152 0054 016a 009f 012a 00d0 0134 001e
00019b0 0125 01bd 0189 0145 012d 013b 0135 00ee
00019c0 0120 0113 0141 fec8 014e 011b 014b ffd7
00019d0 0168 001d 0177 0170 0127 01a9 012d fffd
00019e0 0146 0003 0150 fffc 0137 01a7 014b 0084
00019f0 0114 005e 0140 00fb 0133 ffcf 0129 005a
0001a00 0135 007e 013b 00c0 0145 001e 012b 0055
0001a10 0162 00ce 013b 0023 0123 001e 0142 016b
0001a20 0148 0188 014d 00f2 0151 016f 0150 ffef
0001a30 0138 016a 0149 0134 013f 0045 0134 0089
0001a40 015c 01a3 017d 00e1 012e 014e 0132 008c
0001a50 012e 0142 014a 0071 015d ff52 0146 ffeb
0001a60 0150 0173 0135 0085 0148 006f 012a 01f8
0001a70 0126 ffe2 0143 007c 0114 0114 0115 00d3
0001a80 0150 0034 0169 0108 0140 00a0 0121 ffb5
0001a90 0168 009c 0130 01a9 0117 fea2 0152 0117
0001aa0 015c 013b 0145 011f 0122 0095 0149 017c
0001ab0 0145 018b 0176 0099 016b 01d3 00fa 0093
0001ac0 010d 0149 0144 01db 014f 0143 0106 0146
0001ad0 011d 00af 0164 01aa 0170 00cd 0120 fedc
0001ae0 0152 011a 014d 006e 0129 001d 013f 028d
0001af0 0164 007a 0154 0109 011f 0148 010d 008f
0001b00 012b 006c 0125 ffca 012c 00e1 016b 01a8
0001b10 0109 ff81 0141 0277 013f 0030 0117 00f1
0001b20 013f 01a4 0121 ffe6 015f 00f4 0159 009c
0001b30 013b 019c 012a 0008 013a 01c1 00f4 016a
0001b40 015e 01e7 0105 fff1 0134 0174 0139 00ad
0001b50 0159 0251 011c 01ed 0120 0302 014f 005f
0001b60 0112 00a4 0114 016a 0117 0123 011b ffb9
0001b70 0144 00c6 013f 0051 0124 004f 015d 00ec
0001b80 0148 ffa5 0173 005b 0141 00e1 0171 0074
0001b90 00ed 015c 0164 00d6 013d fe6b 010e 00ba
0001ba0 0137 012d 0147 ffa4 0159 005d 015c 010a
0001bb0 012e 006d 0158 00f4 010c fff3 011d 0156
0001bc0 0158 0152 0144 00ff 0147 012d 00e0 00c3
0001bd0 0134 0087 0135 ff80 013e 0120 0131 002f
0001be0 0167 0213 0139 004b 0142 010e 0166 0129
0001bf0 0145 012d 0140 01d4 014a 00ac 0177 0127
0001c00 013b 0115 0128 008a 0146 0146 011e 01f1
0001c10 011e ffb6 0145 0080 0136 007d 0138 01f1
0001c20 0138 0051 0149 008b 0153 018e 015d 0076
0001c30 011c 005d 016f 0162 013d ffe1 0135 012e
0001c40 012d ff4c 0138 01d1 0158 ffe8 0137 ffcf
0001c50 013b 004e 0148 ffbc 0152 011e 014a 0036
0001c60 0155 006d 0121 01a9 014c 0003 0150 00ba
0001c70 0166 00a8 0135 00b9 012e 003c 0140 0112
0001c80 0131 016b 0142 0106 0184 ffdf 013d 006d
0001c90 0138 00e7 014e 0013 0133 007e 016e 0169
0001ca0 013e 0096 0142 01a4 0103 011e 0161 0125
0001cb0 0108 009a 0141 00fd 0141 00b2 0118 0085
0001cc0 0155 0059 0179 002e 0120 00a4 0138 0110
0001cd0 012d 0101 011e 0123 0129 01e5 011e 002c
0001ce0 0147 018b 0149 0092 0145 00df 013b 00da
0001cf0 0162 00bd 014b 00d7 0130 00f6 015f 01f4
0001d00 016d 0071 0160 008d 0130 01f9 0158 0142
0001d10 013b 00f7 0121 0072 0143 ff99 0133 016f
0001d20 014e 0168 0138 01ab 013b 00fd 0110 ffcb
0001d30 0134 0031 014e ffdb 015c 0139 0141 01cc
0001d40 0123 fffd 011c 0067 013d 01b7 0141 00a1
0001d50 0174 0058 0122 0111 0152 016d 0154 00f2
0001d60 0155 0171 012c 003c 013e 005c 0156 0002
0001d70 0157 ff32 0134 0118 013a ffef 0174 0174
0001d80 0130 019c 0151 0074 0160 006e 0131 016c
0001d90 012d ffc0 0159 008f 0161 00e4 0166 0164
0001da0 0144 00b4 013c ffc5 0149 0005 016e 0034
0001db0 0174 0153 012c 018e 0148 012a 017c 00a9
0001dc0 0102 0179 0157 0165 0114 ff68 0165 012f
0001dd0 0147 019c 014d 0205 0146 001e 018e 01fe
0001de0 0136 01ec 0143 014f 0140 0199 0144 0013
0001df0 0136 000e 013c 01e7 00f0 021e 015b ff8e
0001e00 015b 00ad 0138 ffe9 012e 0116 0156 ffc2
0001e10 014d 01d9 0141 ff81 0144 ff2a 0139 01bf
0001e20 0097 023f 014b 0168 0130 0121 0119 0098
0001e30 011e 01bb 00ac 01cf 0140 009d 014b 008a
0001e40 0137 0125 0154 01aa 0157 0051 0160 0018
0001e50 013a 01bf 015e 00d4 0146 0125 0146 0109
0001e60 0125 0211 0124 00f6 012f 008c 0141 0043
0001e70 015d ffa3 014b 0045 011f 00d5 013c 018e
0001e80 0117 013f 0159 0144 0120 007c 0112 0025
0001e90 0137 009c 00f1 fefc 0109 016e 0154 013d
0001ea0 0123 004f 014a 018d 0162 01dc 0122 0043
0001eb0 012d 00f6 013a 012f 013d fedc 013b 00a2
0001ec0 0145 0047 014a 001e 0128 0060 014d 01d0
0001ed0 0175 007a 016e 009d 0128 0169 011e fec4
0001ee0 012c 0085 012d 01b5 0145 00bd 014f 0051
0001ef0 0140 0190 0156 ffea 015a 010e 0146 00a7
0001f00 0131 014e 0138 ff97 0134 ff9d 014c 0167
0001f10 0154 0064 0149 00a6 014a 0129 015c 006e
0001f20 012e 00df 013c 012c 0163 0001 0147 00fa
0001f30 013d 0184 0142 0103 016d 0059 014c 00e2
0001f40 014e 00f9 0142 ffd3 014b 0198 0157 00dc
0001f50 012f 00fa 0159 0028 0107 ffd7 0136 0096
0001f60 0108 01ba 015a 00b8 0157 0188 012f 0146
0001f70 0146 0032 013e 0178 0106 008b 013a 018c
0001f80 014d 00d6 0140 0127 0145 0111 014f fff8
0001f90 0132 00d4 0153 00cb 012b fff0 014b ff6f
0001fa0 0160 ff94 0143 00e4 0166 00f7 013d 0154
0001fb0 0114 00e8 00fb 0063 0117 0076 0136 ffa6
0001fc0 0213 ff8f 016b 00b8 0198 003f 0169 0010
0001fd0 0167 00df 0122 0031 01e2 01db 011e 0071
0001fe0 016e ff77 017d 0092 016e fef9 013b 0029
0001ff0 0133 ff59 014b 018d 0165 00c3 0285 00ff
0002000 0134 fff8 0188 ff74 018d ffe8 015b 0015
0002010 0193 00ea 0134 fedc 0177 ff80 013d 0124
0002020 017e 009c 0170 0117 017a ff58 01e2 0178
0002030 0185 0095 0191 0163 0155 0022 0160 fef1
0002040 0137 0000 018e 003b 0140 ffe3 0139 0015
0002050 013b 004c 0149 00d0 0143 ff70 01ed 000f
0002060 0121 000d 01a0 ffbd 013d ffc8 0148 002e
0002070 012b ff7a 01ba ffcc 0146 ffbc 017a 009b
0002080 0183 00c1 012d 006e 0161 008a 0161 ffe2
0002090 0151 ff76 0165 0007 0157 0043 014c ff95
00020a0 012f 00af 0163 0066 013f 0061 0199 ffee
00020b0 00c6 ffec 0195 fef6 0149 0084 0134 fff2
00020c0 0127 ffc2 0139 005a 01b6 ffe3 017a 0206
00020d0 0155 005b 00f7 ffce 0176 0049 0159 ffb6
00020e0 015c ff36 01b8 ff71 0147 00d2 0153 0099
00020f0 016b ff96 0169 003d 0146 00a4 0185 0027
0002100 01c7 ffea 0174 0127 00d8 0177 011e ffb0
0002110 0119 0053 016c fffe 0139 ffc9 015f fffc
0002120 0143 0098 0118 0032 0128 ffdd 0179 ffea
0002130 0137 ffb7 0136 ff58 0139 0033 012c ff7a
0002140 01d5 ffdc 0153 fffe 01d5 ff6c 0179 0011
0002150 016f ffc0 0153 ffa3 012c 0007 012c 00ef
0002160 01c9 ffaf 0203 01f8 012b 00a3 01bc ffc5
0002170 0126 003a 0143 00fd 0125 ff4b 014a 003b
0002180 0119 ffee 015c 00b0 0188 ffbf 0137 0074
0002190 018c 0062 0143 0055 0135 ff95 0129 0039
00021a0 015f 000c 0139 00c8 01b4 00af 0172 ff65
00021b0 015e ff80 014a fefd 0164 004b 0135 ffb1
00021c0 018c ffeb 022f 00b6 014a 0008 014c fffe
00021d0 0170 00e3 00d1 000b 0180 ff72 0151 ffe4
00021e0 0147 00da 015c ffb2 0143 ffd1 0135 007c
00021f0 0169 000d 0171 004f 012a 005f 0157 0001
0002200 017b 0088 0121 002e 016a 0083 0146 007e
0002210 01b7 0039 0140 012c 0159 0002 0193 0071
0002220 0161 000f 00ae 0020 0143 ff21 0148 0013
0002230 018d 0122 0132 fff7 012e ffe4 0166 ffe2
0002240 0159 0076 0110 0014 0192 0079 0129 0039
0002250 01be 00fb 0187 0228 0114 ffc2 00f9 ffc8
0002260 014f 0043 015c 00c1 0150 000f 0166 0050
0002270 0140 0044 0141 ffe0 0137 fff8 0105 0136
0002280 00dd ffaa 0131 001f 01a8 004a 0171 013d
0002290 014a ffd2 0147 ff37 0131 0117 017f 00cf
00022a0 0166 fff5 0131 ffa5 0294 01e9 0166 ffae
00022b0 010c 007f 0157 0087 0108 ffee 0135 0003
00022c0 016b 01dc 0138 00af 013a 00ba 0176 ff52
00022d0 0146 0067 0113 00dd 01b3 011e 0176 0004
00022e0 0147 001c 0162 ff90 0166 008e 01af ffbe
00022f0 0141 00d7 017c 006c 0137 ffb9 011c 001d
0002300 0166 0012 0173 00e2 0174 00b7 01a1 0097
0002310 014d ff3a 018c 0178 00ed 009b 0146 ff9d
0002320 0151 0022 0156 001e 0152 ffe3 018c ffe9
0002330 0126 ffc8 0120 fee9 0159 0022 0197 011d
0002340 0172 fff0 015a 0070 0139 0030 015d 0074
0002350 0122 0023 0209 000f 0137 0046 016a ff75
0002360 01a5 0001 012f ff6e 0136 00ee 015b 002d
0002370 0261 0191 0150 0021 0192 010e 018e ff4d
0002380 0128 fff2 015f 006d 019f 006b 014b ffd3
0002390 0137 ffc0 014a 0088 0192 000f 0183 00b3
00023a0 0165 0025 0128 ffd4 0211 ffce 014d 0024
00023b0 01b8 ff98 0148 0089 018b ff62 0212 004d
00023c0 014c 000f 0143 ff57 013c ff6f 0120 ffef
00023d0 014c ff46 0148 ffcc 0157 006f 0153 0003
00023e0 01a0 00c0 018d 01e8 0103 00f0 019c ffa2
00023f0 017e ff8f 01b9 00b8 0159 00fb 019f ff33
0002400 0147 0048 0162 00f3 00f8 ff8c 0140 0087
0002410 0156 fe56 01a7 0004 01a3 00a1 013c ffca
0002420 0130 ff77 0170 01b6 0180 00ba 0158 ff37
0002430 013e 009b 018f 0016 01e6 01e0 012b 004e
0002440 018d 000f 01ae fff8 0178 0042 014f 001c
0002450 0179 0032 0192 01a5 0135 00c2 0147 0018
0002460 01ab ffeb 0167 ffbd 0153 ffbd 0130 ff1d
0002470 0164 0116 0181 0026 0162 0025 0132 0047
0002480 0136 0074 0220 00ab 013a 011d 0234 01bf
0002490 0167 ff96 01ab ffbc 0127 ffd9 0163 ffbe
00024a0 011a ffaf 0166 0027 0170 013d 015c ff35
00024b0 0181 00ae 0162 ff46 01a2 ffdf 013e ff83
00024c0 0141 0128 011f fff1 0214 002c 016f 0036
00024d0 013c 00cd 010b 0098 013e 0021 015e 00ce
00024e0 015c 003c 014a 0085 00e0 00ba 011d 001d
00024f0 01e5 011b 00bd 00c1 0183 00d3 011d 00d5
0002500 026f 01e7 01a2 0052 01a1 0123 0174 002f
0002510 0183 ff94 0182 ff8c 0132 0076 013c 003b
0002520 019a 006a 011c 003d 01c3 00fa 013a fff6
0002530 016b ff1e 0195 010d 0153 0093 019b 0059
0002540 01a3 ffcb 0150 009a 0163 fdc9 016b 0069
0002550 016d ff25 0118 00d6 026f 01a5 0196 00fd
0002560 0218 0010 014b 00d9 0125 0010 019b ffac
0002570 015d ff35 01ea feb2 017e 0027 010d 0126
0002580 016e 0034 0144 0058 0133 ff3c 013d 0081
0002590 0162 ff3d 01a3 0025 0126 007b 0151 000d
00025a0 015e 0071 0193 0012 0176 ffb4 0161 0046
00025b0 0180 fed2 0136 00ed 012f ff89 0169 000f
00025c0 012a 0011 016b ffbf 0124 005d 0147 ff70
00025d0 016f 0078 0149 ff85 013f 0063 011f 0020
00025e0 0189 0065 017b ffba 0146 ffef 0174 ff97
00025f0 0142 ff4c 017c ffdc 0144 008e 0136 ffb5
0002600 014e ffe7 017f ffc3 0174 ffed 0105 0046
0002610 015b 009e 0174 ffc6 01a5 0136 01c9 ffeb
0002620 0145 008f 016c ff72 0161 003f 015c 008c
0002630 01b6 005f 014d ffdd 0190 ff6e 017a 0025
0002640 0130 0024 0173 00b0 0189 0100 012c 00f5
0002650 0140 ffee 0159 fef5 0128 ff99 013f ffdd
0002660 0178 ff78 0170 004b 0163 002b 01b1 ff99
0002670 0155 00a8 0198 ffd7 0178 006e 0150 00ff
0002680 0179 005e 014b 0032 01d4 0146 0173 001d
0002690 0117 00fc 014d 0065 0113 0025 0133 ff73
00026a0 013b 00df 0131 0172 016f ff78 0147 fff5
00026b0 0138 ff8a 019d 0056 011e 001c 0178 ffb7
00026c0 013a 00f3 0130 fff0 01c7 ff6e 016b 0230
00026d0 0159 0028 0134 00bf 0145 ff78 015d ff4a
00026e0 0152 0057 016d fef3 0134 ffd7 0130 ffd2
00026f0 0132 ff5a 0171 0139 0128 005a 0157 0020
0002700 0137 00c0 01af 00b2 017a 000d 0122 001b
0002710 0170 007c 01fb 0093 0171 ffff 0115 006d
0002720 01c7 ffdd 0140 00eb 013e 011d 0163 0166
0002730 0133 0053 015d 0025 012e ffc2 0194 00a0
0002740 017c 00d8 0163 00f4 013f ffc2 013a 0049
0002750 0170 00b3 015c 001f 022f 003b 013c 0018
0002760 0154 ffed 01e2 0033 014a ffe1 0144 01eb
0002770 017c 0048 015e ff72 0134 ffb1 0179 ffcb
0002780 0151 ffcf 014a fefb 0125 ffc2 0154 0050
0002790 01fa 00e8 014d 002a 0128 0035 014a 00a0
00027a0 00c2 0086 012e 0035 0177 000c 01cd ff89
00027b0 0155 0007 0143 00c6 0173 00fd 0130 ffe4
00027c0 0001 fffb 0001 ffff 0001 ffe8 0001 0028
00027d0 0001 ffd9 0001 fff3 0001 000d 0001 ffff
00027e0 0001 0005 0001 ffa8 0001 fff2 0001 ffc9
00027f0 0001 fff3 0001 000d 0001 0002 0001 ffff
0002800 0001 ffed 0001 ffeb 0001 ffbd 0001 fff8
0002810 0001 0008 0001 0000 0001 ffff 0001 fff5
0002820 0001 0001 0001 ffba 0001 fffb 0001 0005
0002830 0001 0002 0001 0000 0001 fff4 0001 0004
0002840 0001 ffbf 0001 fff9 0001 0007          
000284c
